11111111110110110100110001110001
00000000000001100110110000110111
11111111111110000111111011010101
11111111111101011000111110100110
11111111111111100111100000110111
00000000000101000011100100011100
00000000000100001110001000101101
11111111111011111101001101101010
00000000000000110010001110000001
00000000000001000000101111000111
11111111111100100011000010110001
11111111111101111100111001011000
11111111111000110000001000010010
00000000000000100000111011000100
11111111110111110101101101101000
00000000000010100011000101110110
11111111111000010110100001001111
00000000000010000101000101001110
11111111111110010011001001011001
11111111111010101111010111000111
00000000000111101101111111010100
11111111111001101101110100000111
00000000000000001100011111100000
11111111110101111111010001111110
11111111111111011011100001010000
11111111110111111001101010110101
11111111111111000100110011101111
11111111111001111100101111010011
11111111111100110100111011000001
11111111110101111010010011101100
00000000000001010101100110101011
11111111111011011100011001011111
11111111111001111000011100000010
00000000000011010010011101111111
11111111111010110110010011011010
11111111111011110110101010101010
00000000000000010011101010111101
11111111111010101010001101001111
11111111111101100010001011010010
11111111110100000011000100111100
11111111110001000000101001110010
11111111110100010001100100010011
11111111111001011010111100010100
11111111110100101100111010100111
11111111110101111110110101101000
11111111111100111100000101111001
11111111111011010010010100000100
00000000000011101101100100111100
11111111111000000001100110101011
11111111111000010101111011101100
00000000000001100110110111101001
11111111111010000111000000000100
11111111111000011101101001101110
11111111111110001010110100101000
11111111111111111011010001010101
11111111111111010001111001111110
00000000000000110010100110101110
11111111111110100111011110010000
00000000000010011100110010100000
11111111111111010010110110101010
00000000000000001000000100110010
00000000000100110011011000011000
11111111111110110101101011011011
11111111111101011100011000111110
11111111110110110010101101111010
00000000000000011110010000111101
00000000000000010010100001011011
11111111111111101111110111100000
00000000000100101010001110100101
11111111111000110000000110101001
00000000000000010110000010001111
00000000000011111001111111110001
11111111110110001110000011100011
00000000000011100110011000011110
00000000000000110111010001010111
11111111111101001011000011001011
00000000000100010101010110101011
11111111111001000001101110110111
11111111111110011101000001001100
11111111111111011100010101111010
00000000000010000000001010011111
11111111111110111011111010001011
11111111111001011110010000101000
11111111111001111001101010110100
11111111111110010101101011110000
00000000000010110010011000011010
11111111111111111111011010111011
11111111111011101111101111010000
11111111111111010000111010110000
11111111111111101000001100010101
11111111111100100010100011011000
00000000000001111101101111100100
11111111111001010110100111001111
00000000000001001111001101010111
00000000000011011010111010000110
11111111111011001011100000100110
11111111111010100101101110000100
00000000000000001111010001000010
11111111111011111011111110101011
00000000000011101011001111101100
11111111110101010111001001001000
00000000000111000111000100001000
11111111111001010010111000000100
11111111111101000010111111001000
11111111111100001100001110000011
11111111111110010010111000010011
11111111111111110111000010010001
11111111111100111101101111101000
00000000000100000110100010001100
11111111111010001000111001001010
00000000000001010000010111011011
11111111110101010100101101011010
00000000001010010011001100100001
11111111111000110011110001111111
00000000000100101100101011110100
11111111110111101001110001111101
00000000000110110100111111000011
11111111111001001111001110010101
11111111111010111011000000001101
00000000000100110001011110001001
11111111111011100110000011011100
11111111111101001101101001000111
11111111111111011101001001001011
00000000000001101011011000111010
11111111111010000000010001110010
00000000000000100000010011100011
00000000000111100111011110111100
11111111110011000101011110011010
00000000000001011100001110001011
11111111111110000000010011111000
11111111111100011011111011110101
11111111110111111001010110010010
11111111111010101000011101100111
11111111110111101101101101101100
11111111111000101100000000010000
11111111111011110101010010100010
00000000000000001111010111111000
11111111111101101111010110111111
11111111111101100101011101100000
00000000000000110111111010100001
00000000000011000011000100001011
00000000000000000100100011010100
11111111111110100000110001010101
11111111111100000110111010101011
11111111111011010000011001010110
11111111111010011001110010101111
00000000000001000001001100101011
11111111111110011101001010100010
00000000000010100000110110011100
00000000001001010011001001100110
00000000001110111001111111011000
00000000010000110101001001001000
00000000010011001001111101000110
00000000001011000111111101101011
00000000000101100000000111110100
00000000000000110010110010100101
00000000000000111100001011011010
00000000000011001100011110001100
11111111111110100100001111111110
00000000000011001111000010101110
11111111111101010001011011000110
11111111111110100010101101110100
11111111111000111010110011010110
11111111111101101100111000011001
11111111111110101111011011111011
11111111111100110110110010100111
11111111111001111001010111000110
00000000000000000110010011100011
11111111111101010011001100110000
11111111111100100000010101001101
11111111111101110111010000011101
11111111111111100101100010110101
00000000000000011111010111001000
11111111111001001011011000000100
11111111111010100110100011001101
11111111110010001011111010010110
11111111111011011001100000010011
11111111111111001010100000101101
00000000000100011001000111110011
11111111111111100000101110110001
00000000001001010010101100011111
00000000001111100010001111001011
00000000000111000011110011011111
00000000000001111100111110111000
00000000000011111100111111001111
00000000000010011110110101011000
00000000000000011110010101100111
11111111111110011010010001111101
00000000000001000111011000101100
11111111111111001000111111010000
11111111111101111101000011101110
11111111111110100110110111110011
00000000000100001000001111001101
11111111111100101011110101010100
11111111111110010000010010001000
11111111111110101111101010000000
11111111111001000111110000010001
00000000000000001110101011111000
11111111111110010101011110101011
11111111111111010011111111100010
00000000000101111000010010111000
00000000000010100000001101100111
00000000000011110000111110100011
00000000000011000111010101011111
11111111111111000011101001111001
00000000000011110100110010010000
11111111111111001001011100000011
11111111111111010000101000011100
00000000000000010011110111100010
11111111111110101011000011101110
00000000000011010011111001101000
11111111111010110101000101100000
00000000000001001111110001110110
11111111111011010010010100011010
11111111111101001001000110100110
11111111111011101100010111110111
11111111111100001010011011100000
11111111111011110110001101110000
11111111111111000100001011111100
11111111111111001010100011110001
00000000000000010101100110011111
11111111111000101011111100100011
11111111111011011000111100011110
11111111111001011010111010100000
11111111111101001000000111011001
11111111111101001001010101101101
00000000000000001111111100110100
00000000000100100110011010001101
11111111111101011101001000000100
00000000000010101110011101010011
00000000000010010001011010100000
00000000001000110000111000100111
00000000010111111010111101100100
00000000010010100010110101000100
00000000010100100110110101011101
00000000001011011001010000001110
00000000000110101001100111000000
00000000000010111110000011011100
00000000000001111101110101000111
00000000000100101100000000101000
00000000000010011110010111010111
00000000000000011000001111011000
00000000000010111100101000111010
11111111111110100011101001000011
11111111111011111010000001101000
11111111111100010101000001111011
11111111111110110011011111000001
00000000000001101010010001011111
11111111111111100100110111011111
00000000000000101101100100011010
11111111111100110101001001001110
00000000000001011110111111100010
00000000000000100100011011010100
11111111111001010110100010101100
11111111111000001111110010100101
11111111110100100111100100101010
00000000000011010001110001100011
11111111111101001100011111110100
00000000000101101101001111111101
11111111111101010101001110000111
00000000000000110010100100110100
11111111111101100010111101100110
00000000000000010010110010110111
11111111111111111011100000110011
00000000000000011011000101000111
11111111111110101110100100101011
11111111111001111100101010000010
11111111111101011100000001110000
11111111111000101010110111101110
11111111111101010010100001101011
11111111111101101001000011111000
11111111111100011111101101110111
11111111111110001100111110000101
11111111111111001101110010101010
11111111111111101110100100110010
11111111110111111001101000101100
11111111111010011011111000010010
11111111111101001111000010011110
00000000000000110010111100101011
11111111111101100000110111100011
00000000000001100010011011010011
11111111111111111000001100111000
00000000000000011111000010111100
00000000000011001100100010110100
00000000000111101101101111110010
00000000001011010100110011001101
00000000010100111110100100000001
00000000011111111110010000101100
00000000010101010001111101001001
00000000010100011001100000010111
00000000000011100000000111101001
00000000000101001011110110111000
11111111111111011100010010000110
11111111111100010011011110001110
11111111111111011100101100111100
00000000000010011011110001100111
11111111111000100101100101100101
11111111111011000111010100100110
11111111111110100000110101000011
11111111111011101111000100001100
11111111111011111100101000111101
11111111111011101100100100100000
11111111111101000010011011101000
00000000000010101101011100100110
00000000000001000001000000110100
11111111111001110010111110111000
11111111111110010101101010001011
11111111111100001011101001110100
11111111111111010011101000010110
00000000000110001111100001100111
00000000000001111100000010010100
11111111111101111000101111100101
11111111111101110100101100111100
11111111111111100100001000001110
00000000000001100001011000101101
00000000000101001001110010101001
11111111111110110000000000100101
11111111111101000011101100001001
11111111111101100101111010101010
00000000000001100101101011100101
00000000001011010010000010000001
11111111111101111000011111000110
00000000000010101101111010001001
00000000000111100111110011001101
11111111111110101100110010011010
11111111111111101101011011111001
11111111111101110000110001111000
00000000000111010101011000100110
00000000000010100101111111110010
00000000000000001100111011011010
00000000000011111011110101001100
00000000000011001011011000100010
00000000000010001100101001100100
11111111111110001111001110110101
00000000000101100011100011001110
00000000000011010101110110110110
00000000000110100010110111010001
00000000000010000000100111000110
00000000000000101111111101100000
00000000000010110111011000010111
00000000000010100101100110111101
00000000001011010101001010111110
11111111111101110010001001000010
00000000000110110000110111101100
00000000000100110001010110110001
00000000000011100000001001001001
00000000000100001010000010011000
00000000000011101100001010101110
11111111111110001000001000000001
00000000000110100001000111100101
00000000001100010101110000001001
11111111111111011011110110010010
00000000000001111100010111101111
00000000000100111010001110010010
00000000000001001100110100001110
00000000001000011010111111100010
11111111111011010111000010100011
00000000001000000011101100110010
00000000000010111000011011000011
00000000000100110011100101011011
00000000000010100011101101001101
00000000000101101000110110011000
00000000000010011000011010110000
00000000000101101010000110110000
00000000000011101011100101010100
00000000000010110100101111100110
00000000000011110000000001111101
11111111111101100011001110001110
00000000000110111000011101001011
11111111111110000001011010000001
00000000000111011110111100011101
11111111111001111110111100101110
00000000001011011111001011101010
11111111111110010010010111001110
00000000000000000100110100001001
00000000000111011101000000000001
00000000000001001111110001111011
00000000000110111111001000100101
11111111111001100111101110011010
00000000000000000100100101111110
11111111111011110001010101111000
00000000000100000100100001111100
11111111111001111110010111001010
00000000010000011100101000000000
00000000000001001000000100000010
11111111111111100110111010111101
11111111111101010010101101011111
00000000000000001100111001110101
00000000000110011001101010100011
11111111110111000101001010110110
00000000000010000011100110100101
00000000000101000100011011010011
00000000000000011111011001011100
11111111110101001110100001110000
00000000001010100101110011110110
00000000000010111001111010110001
11111111110101111000011000101011
11111111111111010000101111010111
00000000000110010000011011001100
00000000000000001001011101011011
00000000000010001101100100110001
11111111111001000010111110000001
00000000000100110010111001001010
00000000000001011010010010001011
11111111111000011101101001101010
00000000000101101110001100100111
00000000000011010110011100000010
11111111111001110101000111011011
11111111111111010111010000000111
00000000000011000100111010001010
00000000000001101110100111110111
11111111111101010111010011110000
00000000000001100101010001011101
11111111111111111110010101010100
11111111111010011001010011100101
00000000001001001100011000110110
11111111111010010011100110111100
00000000000010011110100001101110
11111111111110101110010010110101
00000000000000101110101011010111
00000000000010000101111000011001
11111111111010101010010010101011
00000000000111101000110000000100
11111111110111001101000100110010
00000000001010111110001000010010
11111111110100110001010101101111
00000000000100000010101100000110
11111111111110011111110011010111
00000000000111000011111111111010
11111111110111000111011010111010
00000000000011011011100100100010
11111111111100111101011111001011
00000000000110001101000000101010
00000000000000110100010010110101
11111111111000000110011001011100
11111111111111010110100110111110
00000000001000010110001100100111
11111111111001011111011101111100
00000000000100110101001011000001
11111111111010001001100101000110
00000000000101111101101100001100
11111111111011110011010110110011
00000000000010111001100011101110
11111111111101101001101000111011
00000000000011110111011110110010
11111111110101110101000000010000
00000000001001101001101101100000
11111111111101000111110101100111
11111111111011101001110100001000
11111111111111000000011111101110
00000000000010001100010011110011
00000000000010110100111011000000
00000000000000101111100110110111
00000000000001111111100100000010
00000000000011010111001010110110
00000000000100110100111000101001
11111111111110111010001000100001
00000000000101000011110010001011
00000000000101110011000000000110
00000000000000110010001001000101
11111111111111011000011110101010
11111111111100001011010100001011
11111111111101110000111101011001
11111111111111110000011010000110
00000000000000111011011101001111
11111111111111111111000101001100
00000000000000101000010111101000
00000000000011010100100110110101
00000000000001101011101100100110
00000000000010110100111000111111
00000000000000111011011110110001
00000000000000110111001101011000
11111111111111101101110010101110
11111111111111101111101001110000
00000000000011001110101010101100
11111111111110011010101111101010
00000000000000001000110100011000
11111111111111100110101111010010
11111111111111110101111101110110
00000000000001001000000000100000
00000000000011110110000110101000
00000000000001110001100110011010
11111111111110000111111010000110
11111111111110100011001100100010
11111111111111111111100001010010
11111111111110100111011110100000
11111111111101101000010110111100
00000000000000010111010111010101
11111111111001000001011111001100
11111111111100011011010110000110
11111111110100111110001100100101
11111111101100101000001111001010
11111111101110101001000110111110
11111111110001100110101011110001
11111111110101000011001101011001
11111111110111111110101001111100
00000000000001000011010001111001
11111111111011111100100101100001
11111111111111001010000100101011
00000000000001101111001011000000
00000000001011100010011011111011
00000000010110110011110011110001
00000000001011110100011100110101
00000000000011111110100110101000
11111111111011101101100111100110
11111111111110100111111000000110
11111111111110100011010110011000
11111111111101000011010001001100
00000000000001101110010011100010
11111111111110001011001010000110
11111111111111100101000111010100
11111111111111100111101001110010
11111111111111001100000110001100
00000000000001101001111100010000
00000000000010111001000100010000
00000000000100111011110010100110
00000000000001110110111010011011
00000000000000100010100001101110
11111111111101010001101101111100
11111111111101011000100111011010
11111111111011010011011010101000
11111111111011100100011101100000
11111111111011101001100111110100
11111111111011100100101100100001
11111111111110011111110000110101
11111111111110101010110000100101
00000000000001000000101010010001
00000000000010111011111111010001
00000000000011111101011100001100
00000000000100111000101011000111
00000000001010110101100011101101
00000000001000100001101010010011
00000000000110101101011100001000
00000000000011001011001101011100
11111111111101001100000011101001
11111111111001011110011001011111
11111111111001011100001010000111
11111111101111101111011110101000
11111111110111000110011000101001
11111111111001010100010011101110
11111111111111010110101000010000
00000000000000111000111001001011
00000000000101111001000011111100
00000000001001100100011000011110
00000000001000111100101111000000
00000000000110100010001000010100
11111111111111011010100110100101
11111111111101010101010010111101
11111111111000100000011110011000
11111111111010100110110000110100
11111111111100010000110110001110
00000000000001100001111110001111
00000000000111100100101000111001
00000000001000010000111001001011
00000000000111100000010100101101
00000000000011111000101001010100
11111111111111001100101010100001
11111111111001011100111110001011
11111111110111011111101100001000
11111111110110100100011001011101
11111111111000111111110010100110
11111111111011011110001101111000
11111111111111001100001111000111
00000000000100001001100110101111
00000000000100000001111111111000
00000000000111011101100100010101
00000000000100100000110111111001
00000000000001011011110101111001
00000000000000100110100011111111
11111111111110000101101010010010
11111111111111001111111011100101
00000000000000010111111001000100
00000000000000110110101111110001
00000000000000111101101110101011
11111111111110000100011011000010
11111111111011010011010000100111
11111111111110001001001001111001
00000000000101010100100100111111
11111111111001110101001110000101
00000000000001101111010000010001
11111111111111010101011101111110
00000000000011100001001111100101
11111111111100000011111110000111
00000000000010101111111010001010
11111111111100000111000111011010
00000000000100010010101111000000
00000000000010010011000001001110
11111111111000110110101101011010
00000000000110111101100011000111
11111111111101100011111111111001
11111111111111001001010000011000
11111111111100110110011010011001
00000000000101100010001110010110
11111111111111100000110000101110
11111111111100000010001001010110
00000000000100000101101000000001
11111111111100011110111000000000
00000000000011100100010101000010
11111111111111110100111101111101
11111111111011110100101001111010
00000000001000011101110110010001
11111111110110111000010101100010
00000000000101010110101010100100
11111111111100100110010000111110
00000000000000100111001111011011
00000000000011011011110101000010
11111111111011101010001010101000
00000000000001100011110111000111
00000000000101010010100011011101
11111111110011101110001111001101
00000000001010100000000001000111
11111111111101000000010010111100
00000000000001011100001001101001
11111111111101101000111111011100
00000000000100000101000000010011
11111111110100000011101000101110
00000000001010100010101000111110
00000000000101000001000110000010
11111111110100101110001001101111
00000000000101001111101000010011
00000000000000100001110110100000
00000000000000100111110101110010
11111111111010111011110100000111
00000000000101110000011011110100
00000000000000100010001010100001
11111111111000101100001011101101
00000000000110110100110110110010
11111111111110100010110000000010
11111111111001110000000101011111
00000000000101111101000000001001
00000000000001011000110011011110
11111111111101110110001110011100
11111111111100011101000111100111
00000000000110000011110001011110
11111111111011000111001100100011
00000000000110000000010000111000
11111111111001010001010011101110
00000000000001100001010010000000
00000000000001110010010100100011
11111111111111011000000100001001
11111111110101001011101011100011
11111111110101001010100110010101
11111111111000011011100001101000
11111111111011000001010001001010
11111111111011100001100001010110
11111111111110001010001111100001
11111111111110010100000111010001
11111111111111001100111000001011
00000000000010111000011010111001
00000000000100001001001100110111
00000000000110000010111110111100
00000000000100110110000010000101
00000000000111110111101111100010
00000000001111101000101011001001
00000000001011110100101100000111
00000000010010110010101100110000
00000000001110110111011010101101
00000000000111101010011110010111
00000000000101001011101110110110
00000000000101110101100000111011
00000000000100100111101111010000
00000000000001110101000000001100
11111111111111001110001000010010
11111111111011001010111100000110
11111111111100100010010111110011
11111111111010101101000100100000
11111111111101110100101011101110
11111111111101100001000001111100
11111111111101101100111100001010
11111111111101100010011111100000
11111111111110001010001010111000
11111111111101010110011010110111
11111111111110111100011111101100
11111111111100001000001011001101
11111111111011110101110110100010
00000000000001000101100011011101
11111111111111101110111001010000
11111111111011101111010010010110
11111111111100110101001110010011
11111111111100001010100101110010
11111111111101100011111110111000
11111111111110100110011001110110
00000000000001001110010101100110
11111111111101001001000000110111
00000000000001100111110001000010
00000000000000011101010110111101
00000000000001010000111110111011
11111111111110000011011100010111
00000000000000101111111110101010
00000000000001100010100010010001
00000000000011000011000110010111
00000000000001011011101101110001
00000000000011001011111100001110
00000000000000001111001010101000
11111111111110100100101100101010
11111111111010111100101010100100
11111111111110001100101000110111
11111111111111110001001110001110
11111111111101100001010000000001
00000000000011101011010001000000
11111111111101101101111011101100
00000000000001110011011011110010
00000000000010001010101001101000
11111111111111001110110110101001
00000000001101000010000001100100
00000000000010000010011010100011
00000000000010110011001010100111
00000000000010011001000111011101
00000000000000011100110000000100
11111111111100001010010001100100
00000000000000001001001100001010
00000000000111100101001010000010
00000000000000111010110111100111
00000000000101010101111011011100
00000000000000000011010100011001
00000000000010110101110110100111
11111111111101111001001111010000
00000000001001101101110100000110
00000000000011100111001001011101
11111111111111111111110100110001
00000000000001110101010011000101
00000000000000010101111111100101
00000000000101100011111101010010
00000000000001110011000101000111
11111111111111100011110011011011
00000000001000110110101111100010
00000000000110011110011001010001
11111111111110100101110111011000
11111111110110101000000001100010
00000000000111100001111000111000
00000000001010010010110001011010
00000000001010101010100111110100
11111111111111111001101011111110
00000000000011011110110110011010
00000000000100101101010110110111
00000000000000000010101000100111
00000000000000110101001011000011
11111111111011101100011010110101
00000000000111100100001110101111
00000000000100100111000100011110
00000000000000011001000000110100
00000000001001000101111010010000
00000000000010010001101100011100
00000000000011111101110110010000
00000000000100001000000001011111
11111111111110110111001011000100
00000000000011011100100101110110
00000000000100111010110001010100
00000000000000010111100010100010
00000000000011110101010010101110
00000000000000011100011011001011
11111111111110100110001100100110
00000000001001000001000111000110
00000000000000011010110101001010
00000000001011110010001010011011
00000000000001000101010001111111
00000000000001110000111111100111
11111111111100101101111010000111
11111111111011001010000001111010
00000000000000110010011000100100
00000000000010110111110111110010
00000000000101110011111001011000
11111111110100110011011111010110
00000000000000010001001100001101
00000000000110110010110001100101
00000000001001110101000111111111
00000000000111000101101001100011
00000000000100100111010100111100
00000000000111111101001010010111
11111111111011001010000100010010
11111111111111010001010101110100
00000000000010011011100001000000
11111111111101101101110010000111
00000000000100111111111000100011
11111111111001100011111110111010
00000000000000001100101011110011
00000000000000101010101111101001
00000000000001001010000100111000
00000000000010001010010011111100
00000000000101110101000000011111
11111111111011111111001101001111
11111111111111111001010000111111
00000000000001001001101100001001
00000000001000010001110100110100
11111111111111000111001000000101
11111111111011100111000110110010
00000000000101101110100001100000
00000000000000101000001000111010
00000000000101010111001001001101
00000000000000111111111110110011
11111111111111101100000010111101
11111111111100011010110101111000
11111111111110000101011010011010
00000000000100110101001001101000
11111111111110110110000001000011
11111111111011001001000010010111
00000000000101000010001110110110
11111111111100011100111101000010
00000000000001101010101111110110
00000000000011111110000110010011
11111111111111110010011001000101
11111111111010100111110001111101
00000000000001001100001000111101
11111111111111111101000100101001
00000000000100100101010100110110
11111111111110110100011010101111
00000000000111000101100000000010
00000000001011111000011000101001
00000000001100001001110110001100
00000000000010101100011000101111
00000000000011101001011001111001
11111111111100111100110110011100
11111111111010100100110010011010
11111111111011011000100001110100
11111111110001100100100000100100
11111111110111011011110101000100
11111111110100000000100001111100
11111111111100100000010001110001
00000000000111010010111111101011
00000000001101010111011001011110
00000000000111101000101000100110
00000000001101100100110000001000
00000000001011011111001011010100
11111111111101011110111001001001
00000000000101110111111101011010
00000000000010011001101111010111
11111111111101101010111010111010
00000000000010110000110010011100
11111111111101111110100001101100
11111111110111101111000111100100
11111111111101000101111010001000
00000000000001110111000100101011
00000000001000011001100001111101
00000000000100000101000000011000
11111111111110111010101000101001
00000000000001000110011101110101
11111111111100111011101110011000
00000000000000010110010011100101
11111111111111110010110110001111
00000000000000110101101000111011
00000000000001000111011000110000
11111111111100000011010000100010
11111111111011100011101111000011
11111111111100110011110010011000
11111111111111101011010011001001
00000000000010100000100101101011
00000000000001111101111111011101
11111111111111011001100110000101
11111111111101010000111000000101
11111111111101011101101100110110
11111111111110100101000111001111
11111111111010010111101100010111
11111111110000000111011010100110
11111111011000110101100111110100
11111111101111010111101011011110
11111111110011100011111111101010
00000000000000101101111100101100
11111111111101010011100110100111
00000000000000000101110000101001
11111111111100101001001100000101
11111111111111110111110010111011
11111111111101110010101011110010
11111111111111010011101000000111
00000000000001000000001110010010
11111111111111111010000111101100
00000000001001000110100110000111
00000000000111110001010000010011
00000000000110011011011100101010
00000000000010010111000001000110
00000000000001100010100001101001
11111111111110110001101010010111
11111111111011000101100011110111
00000000000100010011110110000111
00000000000000101111101100110110
11111111111110111001110100111101
11111111111101110010100110111110
00000000000010001001011111000111
00000000000000101011000001010110
11111111111101001000000000111001
11111111111110101111101011101000
11111111111111110001101111010110
11111111111110100000001111000100
00000000000010011010100101100011
00000000000011100111010111100010
00000000000000011101000111000110
00000000000010000100011010001111
00000000000011101101000010101101
00000000000000000000001000111100
00000000000001111000010011110011
11111111111110010011000000010011
00000000000000001110110011100001
00000000000101100000100101001010
00000000000001101111010000110100
00000000000010111010100111111101
00000000000100001101111001101011
11111111111110010000101011100001
11111111111100001100000011000101
00000000000001101101101111110011
11111111111110001100000111100011
00000000000000101101101001111011
11111111111111100010000001110000
11111111111111010111011111011100
00000000000000001010100011011111
00000000000011011011101101110100
11111111111110010101111101100010
00000000000010100111000110011110
00000000000000011010001010011000
00000000000100010011101000101000
00000000000010010010111100010100
11111111111110111010001001100101
00000000000000001010000011011110
00000000000010100111100011111100
00000000000001110010000100111100
00000000000000101101001111011000
00000000000010000101000101011111
00000000000011010000011111010100
00000000000001110100101110000100
11111111111101110000010011100011
11111111111101110111111110101100
11111111111111110001001011001111
11111111111100110101110000110110
00000000000000111010110001110101
11111111111110110010101110100110
00000000000011100100001011101111
00000000000000111010100100010010
00000000000111000001101000010110
00000000000011001010011001101100
11111111111111100001001100000110
00000000000001010101000100000111
11111111111110010001001000011001
00000000000011001110110001011011
00000000000100011011000111111110
11111111111101110010011010000011
00000000000110000110000110000101
00000000000000000011011111100100
00000000000001100010011111101010
11111111111111111110011011111101
00000000000001111100010101111010
11111111111110100100110001010001
00000000000000111011101100010110
00000000000010100010000100010101
00000000000000101110000100110110
00000000000000100111100010100110
00000000000000100100101000011000
00000000000001101101100011111101
00000000000010101100111100110110
00000000000010000000001011011110
11111111111011000101010110010000
00000000000001011111110001111101
11111111111101001101101110010001
11111111111101101101111001011111
00000000000000010011001101010101
00000000000010100010000011100100
11111111111100001011011000110110
11111111111111000110001110110101
11111111110101101111101011100011
11111111100011111110000101010110
11111111100001000001000000101110
11111111101010010101001100000101
11111111101011011001001111010011
11111111111010101110110011100000
11111111111110011010100001100010
11111111111110010001011011011101
00000000001000111010100100100111
00000000001100000101110010000000
00000000001111101100110100000001
00000000010000101000010101100000
00000000001110100100110011110000
00000000001000111000101011100100
11111111111111111111101010101000
11111111111110010111111111000101
11111111111101111111011110011000
11111111111000000010110100101110
11111111111010111100101111011100
11111111111011001101001110011111
11111111111100011111001100110110
11111111111101100000011000110111
11111111111101010110011110011000
11111111111110010011101000001011
11111111111000110000011111000010
00000000000000000111011000000101
11111111111101101000101001110011
11111111111010011011001110110011
11111111111011101010001111101110
11111111111100011001011000011110
11111111111000011011011100100001
11111111110111111000110110011100
11111111110111101001100110101110
11111111110111111110011000001010
11111111110011110100000000111110
11111111111001101010100110110111
11111111111011101100100100101111
11111111111100100101101001111010
11111111111110001000101101110001
00000000000001101111010111110000
00000000000111000101110111101010
00000000000000000100100011101101
00000000000111000101101101111111
00000000000011101000011111100011
00000000000010100001000101111110
00000000000111111010111110000101
00000000000110000010100100000101
00000000000010010010011101011010
00000000000010010001010000000111
00000000000010110101000000110110
00000000000011110010101110000010
11111111111101000110100111000001
11111111111111110010111100000111
11111111111011110101001111001010
11111111111100000011111000000110
11111111111001001011011001100010
00000000000000100110000110011111
00000000000100001001100001101011
11111111111110111110110011111001
00000000000100110000100011010100
00000000000001000101010000001010
00000000000010111000111101010000
11111111111101101001001101001000
00000000000001001000010000010100
00000000000010010100110000000110
00000000000101011011100101011011
00000000000010101011111110000000
00000000000011100101011011010110
00000000000010010000101010111101
00000000000111101001001100101100
00000000000001111110110000110101
00000000000001110011110101001110
11111111111101101110010000110100
11111111111001110001100101111100
11111111110110011100111110100110
11111111111100011110000001010000
11111111111000101101101101011111
11111111111110000000000011001010
11111111111011010000011000111110
00000000000011101011100111011111
00000000000110011010000110100100
00000000001111000110101010001011
00000000001001001011011111000000
00000000001010100100011011110011
00000000000111011110100001001000
00000000000001101010100101001100
11111111111100001010001110001101
11111111111000010101011001101110
11111111110000010001101101100110
11111111110100101010001100000111
11111111110111010011111010011000
11111111111010111110001011001010
11111111111110011010101111000110
00000000000001101110001010101011
00000000000110011100010101011111
00000000000011001101001011100011
00000000000010010101110001001101
00000000000010000110111010001100
00000000000011100100110110110011
00000000000101101110010100011011
00000000000001001010010101100111
00000000000100011010011001100100
00000000000011010111011111101011
00000000000101101101110111100111
00000000000000111001000011000110
11111111111110010011011011111101
11111111111011101110101010100000
11111111111001000010101101001001
11111111110010110100001110011101
11111111110100010111111001001101
11111111111101000001010101100110
00000000000010000100010101010111
00000000000101000111010111101011
00000000001000101100101111001000
00000000000010001011100011100100
00000000000110010111101111001101
00000000000011001010100110110100
00000000000000011101101010110100
11111111111110001100100001011000
11111111111100110100100110110011
11111111111011001110110001001111
00000000000000100010000100111101
00000000000001100000101000000101
11111111111111011001101101010001
00000000000011111111010010000000
00000000000010101001011000111110
11111111111111010000100110000010
11111111111111010100101011000100
11111111111011101111010001111110
11111111111100101110110001100100
11111111111101110110001000000111
11111111111111110010111010001100
00000000000100000110110100001100
11111111110110100111100010110011
11111111111010010000100110001101
00000000000011010110110111100001
00000000000001000010100011001010
11111111111110111001110010000001
11111111111010011001101010010101
00000000000100010010001001111100
11111111111000100000010011110000
00000000000110110111110101111000
11111111111111101001000001000111
11111111111110100001101101101000
11111111111010111101010001010011
11111111111101111100010011111100
00000000000000001011010001110101
00000000000100001100111010101100
11111111110111010110011011000011
11111111111101010010010010111010
11111111111010011001110000101010
00000000000011010101111110101110
00000000000001010111100100111010
11111111111101011111100101000100
11111111110111001100110010000110
11111111111100110110110100100011
00000000000001011110100100010111
11111111110110000111110001100101
11111111111110001111111000010011
00000000000010001000001011100011
00000000000010011011110111110100
11111111111110101101101000101001
11111111111011100001101011000100
00000000000011111011011101011010
00000000000010001011100100110010
11111111111111000010001110010000
11111111111001100001000100111010
00000000000000100010000110100100
11111111111010000011000110100100
00000000000100010100110111010001
11111111111100001101000010101110
00000000000101010101111011010100
00000000001010011101011110110110
11111111111010101110001110101100
11111111111101101001110110001110
11111111111101100001001011011001
00000000000000111100100001001110
11111111111100000110100010110111
00000000000000101101111011011111
11111111111010111110101101000010
00000000000000010100001100010011
11111111111011000010000110000101
00000000000000010010011100010110
11111111111011001001001001100001
11111111111110010100111011010000
11111111111000101110110111011101
11111111111110010101100010111010
00000000000111100011001011110111
11111111110111110001000111001110
11111111111101111101010110010000
11111111111111000111101100110000
11111111111011011100000111011111
00000000000011111000101001100000
11111111111010000011100000000100
11111111110101010101111001001000
11111111111011100011010011001110
11111111100110101101000011010111
00000000000001111111001101110101
11111111111011111000011010111111
00000000000101111000010011111010
11111111111010110111111111000000
11111111111110001000011100100110
00000000000011111110101101000100
00000000000100101001000101111000
11111111110111001001001100111111
00000000000010100100000100010111
00000000000010111111100011101010
11111111111111000100111000000111
00000000000010001100111100000010
11111111111000010100101111001010
00000000001000101000000010011010
11111111111101111101010010111011
00000000000000100001101101000110
11111111111100101100101111100100
00000000000010011101111101010001
00000000000010111110100111001101
11111111111000101000100001100010
00000000000010000011110001110010
00000000000010110010110111110101
00000000000011101001001100001111
11111111111000000110000110101001
00000000000000111101111110100011
00000000000010000001001011100011
00000000000101011011110100111000
11111111110110100101001010001101
00000000000100101101110101000010
11111111111100101111100011001111
00000000000000110101110111000101
00000000000101001000011001000110
11111111111011011010000101010111
00000000000101101011000000111100
11111111110010010001100101010000
00000000001100010010011100011000
11111111111101111010010100101010
00000000000000111011110001100011
11111111111000100110011011100010
00000000001011000000111111011010
11111111110110100101110010100001
00000000000100011100011111010101
00000000000000011010001111000101
00000000000011011111000010111101
11111111111000010000111111010010
00000000000001000011111101110010
00000000000011111010100100010011
11111111111001100011010011100110
00000000000111011001011110000111
11111111111101011010011100110010
00000000000010111011111110000101
11111111111110011101010000000100
11111111111011011010101100001111
11111111111111000001000110111000
00000000000110000100011110100100
00000000000010011100101001100001
11111111110100101100100101100110
00000000001110011000111000000011
11111111110011010011011111000000
00000000000010011111011001111011
00000000000010010001100000001010
00000000000001001010001010110010
11111111111110111001001100110001
11111111111111101101001111110111
00000000000010000111001111101110
11111111111110000101010101010010
00000000000001000001101001011110
11111111111111110100011101110101
00000000000010110110000111001000
11111111111100101100011011100100
00000000000001001111110100101000
11111111111110101100001111010010
00000000000010001111001110111101
11111111111110111110100010101110
00000000000010101011000000101000
11111111111110110010000110011111
11111111111110011011100110110001
00000000000000100010011101111100
11111111111111011111111010000000
11111111111110111101110010011000
11111111111111100101000111111100
11111111111111110111011000010010
00000000000001101011001011110101
00000000000000111010010100101111
11111111111111011001111111110001
00000000000010000111000010000110
11111111111101100000001110110111
00000000000000000011101100101000
00000000000010010011111000110101
00000000000000011000010100001111
00000000000001111111111011001000
11111111111101100011010010110111
00000000000001000110001010111010
00000000000001011010001101011010
00000000000000000110101101001110
00000000000001010001101100100111
11111111111111000110111001110100
11111111111101111110001011001111
11111111111110001011110000011110
11111111111110101110100110110100
00000000000000000101011111011111
11111111111111011011100101000011
00000000000001011110001111111100
00000000000000101101110110101001
00000000000010011100110010101100
00000000000010010110000000011000
00000000000000000001001000000100
11111111111101010101001010000100
11111111111101100100001100100011
11111111111101110011100111000001
00000000000011100101000101010110
11111111111110011111000110001011
00000000000000000011011011011001
00000000000010011110100010011000
00000000000000000010110001000110
11111111111101011111001100100110
11111111110010010101010110110111
11111111100110010011100111001111
11111111110100001111000111011010
11111111111001010100011001111101
11111111111010110011100010101011
11111111111100010101100101001100
00000000000010010001010111110100
00000000000111001000101101000000
00000000000111110000010100011110
00000000001100100011100110101010
00000000010101001010000111011010
00000000010000000011010000100001
00000000000000110011111001010101
00000000000010100110001100101011
00000000000000011000011100111011
11111111111100111110001011010010
11111111111100001111010110100000
11111111111101000101111100111001
11111111111011110111001111101111
11111111111110100111011110001000
00000000000010000011100111101011
00000000000101011000101110101110
00000000000110101111111011100000
00000000000010010101010011000111
11111111111111111100011101000001
00000000000010111101111100000110
00000000000001101111010111010100
11111111111010110011001010011010
11111111111110111001100011100101
11111111111101101010001011000001
11111111111110011001010110101011
00000000000101010000111100001111
11111111111011000100011111001001
11111111110101100011010111010001
11111111111000010110101011111000
11111111111101010011111011110010
11111111111101110110001110110010
00000000000010110000000100100111
00000000000110001010100001001100
00000000001110110011000100111011
00000000001100010101010001110100
00000000001001011011000111101111
00000000000011111100001100000000
11111111111111011000011100001110
11111111111000010000111111100111
11111111110001111011110101111000
11111111101111101110111101111111
11111111110000011010110011010110
11111111111010100010111110011011
00000000000110100101001000100100
00000000001000101001110011100000
00000000001101111000101101110110
00000000001001010111000000100011
00000000000011101001110010110010
00000000000001001100010010010110
11111111111110100000001100001011
11111111110111100010101101000000
11111111111011110101111001000000
11111111111010100011000001110110
11111111111100001010101111010011
11111111111111001011001011100010
00000000000101001000011011011011
00000000000011101111001010110111
00000000000100111000111111000100
00000000000001101100101111001000
00000000000001000111110010111001
00000000000000101000110010011000
11111111111011111011000001000011
11111111111011110001000001111111
11111111111011111100011010000011
00000000000001000100111101000000
00000000000000110110101110010111
00000000000001101100000000000011
00000000000000110011011000101110
11111111111111000011010101001011
00000000000000100011010110001010
00000000000000011001011000000000
00000000000001111100011101100010
00000000000000100000001110000011
00000000000010110111011100010010
00000000000001000011100001101110
11111111111101110101001101101111
11111111111111111000101010100100
11111111111110011001110000111010
00000000001000000101101010101010
11111111111111001000110110110011
00000000000011111010000100011101
00000000000001110101100111110000
00000000000010110011011001011011
11111111111101011000111100010011
00000000000010000000010100110000
11111111111110101000101011010110
11111111111110101010101100001011
11111111111110101001100100011011
00000000000000110110100001010000
11111111111111110010010101110111
00000000000011110100111001100011
00000000000010110100011010000101
00000000000001101101010010011110
11111111110111100100001111001010
00000000000000111000010011110000
00000000000000000000110110001100
11111111111110010001000010101101
00000000000000011011010001010111
00000000000001110100111100000000
11111111111111001000011011100000
00000000000011100111101111001111
11111111111101100010110010010100
11111111101101001001101101000110
11111111100000000110011010101011
11111111011000100101100010011011
11111111110011101011011001110100
11111111111000010011110111101100
11111111111110110111101110101001
11111111111011100000000000111011
11111111111111101110111011001000
00000000001000110000100100101001
00000000000010001101000100010101
00000000000001010110111110010010
00000000000001111000100011001000
00000000000101110001101001001110
11111111111111110100010110100101
00000000000000110100000110011000
11111111111101100110010010101010
00000000000010110110001010110111
11111111111111000101100111110111
00000000000010111000101100100011
00000000000010101100100010011100
00000000000010110000101000001011
00000000000100001100001111100110
11111111111111010111011010001111
00000000000010000000000010000010
11111111111011101101110111011100
00000000000000100111101111000011
00000000000001010000101101110111
00000000000100111000111110110000
00000000000001001000001000000000
00000000000100101110110001110110
00000000000001111101111110011000
11111111111111101110110100110110
00000000000011001000000011111101
11111111111110100111001110100100
11111111111111111001111111111001
00000000000010010010110001110000
11111111111101001101010010100111
11111111111111000110111011101110
00000000000001000011001111110011
00000000000000011100110111110011
00000000000000111001001101101001
00000000000010011010010010001011
11111111111111001110111100111000
00000000000001111111110100010111
11111111111110100110000110010110
11111111111110111000111100000000
00000000000010011110110010111011
11111111111111111110000011001000
11111111111110110000101101011101
11111111111111111100001010111011
00000000000001011001001001011101
00000000000001001110101101100001
11111111111111011101011001000100
11111111111110110011100000001100
00000000000000011110101101111110
11111111111010110000010001000110
00000000000000010110011011010011
00000000000000110000100100110111
00000000000001000100101000111010
00000000000000100111100001110000
11111111111111101011010100100010
00000000000000010000001001100101
11111111111100111101001101000111
00000000000001001011101100011001
00000000000000000000100000111010
11111111111101101100110010110111
11111111111111100111101001111010
00000000000100100100011001101101
11111111111111101101011100111001
00000000000001110001110100101100
11111111111001111101001001000000
11111111110000001110111110000111
11111111101100011110111111010000
11111111110100101001001000111001
11111111111011100111010011000110
11111111111111100100011100100110
00000000000001101100111001110001
00000000000100111110010001011010
00000000001101101010000101111110
00000000010101011101011111001111
00000000001011011100110010101011
11111111111111011010011010111011
00000000000001011101100000001101
00000000000100110001101111100000
00000000000101110010110100001001
00000000000010101001111001100001
00000000000001000110101000101011
11111111111111101101000101001010
00000000000100101010010011100010
11111111111111111111011100100010
11111111111110110011111101100010
11111111111101011110000111010010
00000000000010010101111010000110
11111111111101010100100101111100
00000000000000010101000110110010
11111111111000100011001010011100
11111111111100110101011100110010
00000000000010011110001101000010
11111111111110000111110100010101
00000000000010011101111111101110
11111111111101000010110110001001
00000000000010111111100100110101
00000000000001010110101110100001
00000000000011100000101101010101
11111111111101011001000110111010
00000000000000100111100101101000
00000000000001000011110101001010
00000000000000100001111001100111
00000000000011101110010000100101
00000000000000001010100000001101
11111111111110001111110001010001
00000000000001001010000011011001
00000000000011101000010101000011
11111111111111101101001000010001
00000000000010001010101001101110
11111111111110010101110100111010
00000000000001111110011110100010
11111111111111001011011000011110
00000000000000011001000001001101
00000000000001001100100001001010
00000000000010100101110110111010
11111111111111011100001101001010
00000000000001000011000101111101
00000000000011010110110010010111
00000000000011101110000000001000
00000000000001001111000111110010
11111111111111111001001000101110
00000000000000110000001100010100
00000000000000010100000011000011
00000000000010101110000111110101
11111111111111001010111111011011
11111111111110101101000011000100
11111111111110101000111100011000
11111111111111000010011001000001
00000000000010110010101010011001
00000000000001111101100100100110
11111111111110101000110111001001
00000000000001100000110111010110
00000000000001100010000000001100
11111111111110010000001111110100
11111111111101011110010010110000
11111111111101001011101000001110
11111111111100110111101001111000
00000000000000011100011010101111
00000000000000000011001110100110
11111111111100010001111110010101
11111111111100100100000111011111
11111111100111110001100010100000
11111111100000010110011111000100
11111111101101101000111000110010
11111111111100111010001111100011
11111111111101000011001110010110
00000000000001001000000001001100
11111111111101111111010100101111
11111111111111101110101111100000
11111111111100001011000000111011
11111111111011111010001100010001
11111111111101100111011011001001
00000000001000011110111101000111
00000000010010101110110110101000
00000000000000110101101011101101
11111111111100011000001110110111
00000000000100101011011000001110
11111111111111000111110010101001
00000000000000001010010011001111
11111111111110110101011010111101
11111111111110100101011100000111
00000000000101011001110000111111
11111111111100011111111010101010
00000000000100010000000110101110
11111111110010011000001101011011
00000000001010110111000000011100
00000000000000110001011000000100
11111111111111011001001000110011
11111111111001100000010100011000
00000000001001110101001000100000
11111111111001100111100000101000
00000000000001110000100010110011
00000000000101001110001001010000
11111111110101111100111000010011
00000000000111000011100100000000
00000000000010011100011001000101
11111111110101011100001010111111
00000000001001010110101110011100
11111111111010100110001100111000
00000000000010011100010100110110
00000000000000011111111000000101
11111111111111101001011011011101
00000000000100101101010011011110
11111111110101111010100010000101
00000000000101010011110101000011
00000000000000010100011001100011
11111111111111101011100100001101
11111111111101000010000100100101
00000000000101011010011100100100
11111111111010000111110001000010
00000000000010011100100011011010
00000000000001000011111101010011
11111111111110000111101011101011
00000000000001111101000111000100
11111111111110010010101000001100
00000000000011011010011001110101
11111111111011100010111000111000
00000000000001001100010101101000
11111111111110100111011001110011
00000000001001010011101110110100
11111111110001001111111001101110
00000000001011100011101111001100
11111111111010000001101011000110
00000000000001101110111011001101
11111111111110010101011100010011
00000000000010111110110010110101
00000000000000010000110011011101
11111111111011000000001001000110
00000000000000101101001001101010
00000000000011111000110100010011
00000000000001010111111010100110
11111111111000000111101010001000
00000000000111101010110001010101
11111111111101010101101001001110
11111111111110110111010110000010
00000000000001000110010110101000
11111111111111100111011100101101
11111111111111101111000100001101
11111111111111101010000001010010
11111111111111000101010000001011
00000000000001100110001110110110
00000000000011100011110010110001
11111111111001100001001011011000
00000000000100001110110001010110
11111111111110000010111111011011
11111111111111011110100000101000
11111111111110011101001111011101
00000000000110101110110101010000
11111111111100111101000001101100
11111111110111010111111010010000
00000000001000010100011110110110
00000000000001000000110111000110
11111111111111110101110001010010
11111111111100100110011110001001
11111111111101000000101110010001
00000000001000101011110100011111
11111111110111010011110101111111
00000000000110010100100100011100
00000000000001000011000000111101
11111111111101110101111001001011
11111111111000111101101100011010
00000000001001010000000010000100
11111111111101001001101011010100
00000000000010110111111111111011
11111111111000010001000110111110
00000000001000111100000011100100
11111111110111001111110000001110
00000000001000001100110010100110
00000000000010010000101001110000
11111111110010101000011111010110
00000000000011010001000010010100
00000000000100011011101101111100
00000000000011001011011100010001
11111111111001001100101010000011
00000000000110111010010100010010
11111111111000010111011001101100
00000000000101000001100001111110
00000000000001010100001000010000
11111111111000001000000101111011
00000000000000111011011110011101
00000000001100011001111101111000
11111111110011011000111010110100
00000000000110110001110111100111
11111111111000001110111101111000
00000000001101100101010110010011
11111111110110011000111100011001
00000000000000011110010110101101
00000000000100011010010110011100
11111111111100110101010101111110
11111111111110100010001000110110
00000000000100000010101000110101
11111111111011111101010000100010
00000000000001001111001000010110
00000000000010100000000001110000
11111111111101011111100000101100
00000000000010011100000110001110
11111111111100110011000011101100
00000000000001001011110110110100
00000000000001111111101010101111
11111111111100000101101110111111
00000000000000111100011010111111
00000000000001010011111010000000
11111111111111011001010100011111
00000000000010000011011100000100
11111111111110011110010000001101
11111111111110111000010110111100
11111111111111000001101001110111
11111111111001000001011000100100
11111111110111111101010111110111
11111111100100001010101111101101
11111111010111111000000001001011
11111111101101000110000111001000
11111111101111011001010010110000
11111111111110110000101000101110
11111111111110010111000100001000
00000000000000001110011111111000
11111111111110011101011100010111
00000000000010100101010001100001
11111111111101011011010000110100
11111111111111100000011111000100
11111111111110101101101011010000
11111111111101100110011101001000
00000000000000000111011001010010
00000000000101101101000101000110
00000000000110110001000001100101
00000000000010011010011011011000
00000000000110010100000010010111
00000000000000111110101100111001
11111111111100011111111111000110
11111111111111101101101001100011
00000000000001011011110000001011
00000000000011010100001111001011
00000000000001111001110111011101
00000000000000001100100101111010
11111111111111000101100001100101
00000000000100001111101011011111
11111111111101010101010010000101
00000000000010011001000111000111
11111111111110011100100100001010
00000000000010011100010000100100
00000000000010010100010011000001
00000000000010111110111111100001
00000000000010110110101000100010
11111111111100010011011100001000
11111111111110110101100101101100
00000000000001001100001111100010
00000000000001001000110111011111
00000000000011111011011110110111
00000000000001110001011101000010
11111111111101010010010011001001
00000000000001111101111010100111
00000000000001010111011001011001
00000000000100100110110110110100
11111111111100111100110100101010
00000000000011010001000000001111
00000000000011000110001000110000
00000000000011111000001000001000
00000000000010010011100101010001
11111111111111100011101000010000
11111111111110000001001111000110
11111111111100111110000100000010
00000000000010001101001110101000
00000000000000000111001101010001
11111111111111001010000110100000
00000000000110011011000010011001
00000000000000001010110011101000
11111111111010100110011001100100
11111111111110000111000100110010
00000000000000010111111001101100
00000000000100110100111011110011
00000000000101010111100101000100
00000000000100000111100001011110
00000000000000100000111010011011
00000000000001100001100110110110
11111111111100100100111110011010
11111111111101010011111111100100
11111111111001011011011100010101
11111111111010001001010000001000
00000000000000100011000101101111
00000000000000110000111001110101
00000000000001010001010010110101
00000000000111111110110100101100
00000000000010111011010110000000
00000000000001011010100001101110
11111111111010000101110000110110
11111111110011101101111100111101
11111111111010100011111010001000
11111111111110000011011001001100
00000000000010000100100101000000
00000000000111011000001011110010
00000000001011001011001010000000
00000000001101011110111001100010
00000000001000100111110000111000
00000000000011101001001111010010
11111111111111001001101010111111
11111111110110001111111111111001
11111111110010001111110100000110
11111111110010111110001100000011
11111111110011011000100010110000
11111111111000011011110000001010
11111111111111011111100101001110
00000000000111010100010001111000
00000000000110100000110110001011
00000000000111100100001010011010
00000000000111111011101000111110
00000000000101010101111110000010
00000000000001101110001000101010
00000000000011100100110010011100
00000000000000011001110111110001
11111111111110111111011110111010
11111111111111001000001110111010
11111111111100111001000111000010
11111111111100111100010100011100
11111111111110110000100101010010
11111111111011100111111010001011
11111111111100011010000101001110
11111111111011011010101010110001
11111111111100100000101001010010
11111111111111010000000000100010
00000000000001001001100001100101
00000000000001011110100100100001
00000000000100010010100001010000
00000000000110000010001100110010
00000000000100001000000101101011
00000000000001011011011110100000
11111111111111011100010010011100
11111111111101101010111001110010
11111111111111001001010110110110
11111111111101010010111001101001
11111111111110011000011110011110
11111111111010100010110000000100
11111111111011000010010110000111
11111111111100011010101100110111
00000000000001000001100011010111
00000000000111001100010110101010
00000000000101010111010110001010
00000000001000000001111001100001
00000000000110001101110011101011
00000000000001001100000010111100
00000000000000110111000111100010
11111111111010011110011011001100
11111111111000011110110100000000
11111111110100101011111100100010
11111111110111000000110100110011
11111111111101100000111111111110
00000000000001000000100010110111
00000000000110100011101001010001
00000000001001111110101010000111
00000000000111001011100100110000
00000000000101111000010100001110
00000000000011000111110000011100
11111111111011000011011001100110
11111111111001100011101111100000
11111111110110111101101010111010
11111111111001011100000100110000
11111111111100110011010100111101
11111111111111111111011001100111
00000000000010101001011001001001
00000000000111010101001000000000
00000000001001010011101010111100
00000000000100101000001111111111
00000000000010110001100000010001
00000000000000011110100011000101
11111111111110001010100011111111
11111111111101100000111011101101
11111111111111110001110111001011
11111111111101001010011100110100
11111111111010010010010111101010
11111111111010101011001111110111
11111111111110010010100001001100
11111111111011010001000010010000
11111111111011010011010000010100
11111111111111111010101111011111
00000000000000110101110010010101
00000000000011100000111011111010
00000000000110001010111101101001
00000000001000111101001100000010
00000000001000010110110010110100
00000000000100101110101111101111
00000000000011000011110001101010
11111111111101001111000011100000
11111111111011110010010010000001
11111111111010000011001000001110
11111111110111110100001000001111
11111111111001011001110001100001
11111111111110111010110100110111
00000000000000011101010110001001
00000000000010100001110000001000
00000000000001111010000011001111
00000000000011001111110001110011
00000000000001111100101100010000
00000000000000011111011001100100
00000000000000001110110000000001
11111111111111110000000100000100
11111111111101011101101001111100
11111111111111010101010101011101
11111111111101001011001000100010
11111111111011011011010001101010
00000000000000001000000011000111
00000000000010100111001011111011
00000000000010001110100110010000
00000000000011110011100010010101
00000000000110001011000111111110
00000000000100001010001011000000
00000000000101111110110110101010
00000000000101001110100001110001
00000000000001011010000110011100
11111111111011000101001000001110
11111111111000110100100010110011
11111111110100101111010111011010
11111111110010100000111010010000
11111111110110110010011001011010
11111111111000100000111100010100
00000000000011100011101001100011
00000000000101001111010000010111
00000000001100111110011111111111
00000000010000011101010110001001
00000000001001101011010001111001
00000000000100010111001010101010
11111111111111010100100010111111
11111111111010010000011010011101
11111111111001010000110011100000
11111111110011100111100001010010
11111111111101011100010110011011
00000000000000111000101000100100
00000000000000001100100010110111
00000000000101011111111101100110
00000000000111001100110100110001
00000000000010001011100010101000
11111111111110011110111010101101
11111111111011010111101100011010
11111111110111111010001011001001
11111111111010101000010001011000
11111111111011111110101001111111
11111111111111010011111101010000
00000000000000011101011001010100
00000000000110101011101000110000
00000000000111110001101001101001
00000000000100101010101110000010
00000000000100011110110011011111
00000000000001011100111011111101
11111111111110001000110000000011
11111111111011110110011010010000
11111111111010100111100000011011
11111111111101000001110111000100
00000000000010111100111111100100
11111111111110101111110100100111
00000000000011100111000011101111
00000000000100001100110111011011
11111111111110100110010100100000
11111111111101011101111011110000
11111111111010011101010001110010
11111111111101111111111110010001
11111111111110110010011001010100
00000000000001001110000101110100
00000000000100001111000111100110
00000000000011010110101110111111
11111111111110111110011000110111
11111111111110101000001011100110
00000000000001000101110011010010
11111111111110110001101100001100
11111111111110111110001111100000
00000000000010101011101111111010
11111111111111111001000111010010
00000000000000001111001111000111
11111111111011011110111001101110
00000000001001010010000111010111
11111111110110011111101000011110
00000000000100100000111111101011
11111111111111001010011001100010
00000000000000011111000111010111
11111111111101010111111011111101
00000000000100001100011010111111
11111111111100001110100101011101
00000000000110100010001111100010
11111111110110101011100011101110
00000000000011011011001011111000
00000000000100010010100000001100
00000000000001011000011000011011
11111111110010111111011011010110
00000000001010100100101110110001
11111111111111110100111111110010
11111111111110011011010110110101
00000000000001000111000110000101
11111111111100000001011100100101
00000000000011100101011100001010
11111111111110100001000100101111
00000000000000001010111100010001
00000000000000110111001011110001
11111111111110101001100110100010
00000000000001010000100101100101
00000000000011010010111110000100
11111111111011011101101011010011
00000000000101011011111100001100
11111111110110000011100111111000
00000000001010000100101011100000
11111111110111110100110100011110
00000000000110110111111110001101
11111111111100100000100001000010
11111111111111011111000001000000
00000000000010010110011101011111
00000000000000110101011101110110
11111111111100001000100000110100
00000000000001110010100000101001
11111111111111001111001001000111
00000000000101010100111100100010
11111111111000100111101101000101
00000000000001010011001000011111
00000000000100110111001011001010
11111111111111010110011010111110
11111111111001000001111101011001
00000000001011011011000111001100
11111111110101111100011000011110
11111111111110100010010111100000
00000000001001110100000100100000
11111111110111110010101100000101
00000000000110111010100000101001
11111111111100000011000000101101
00000000000000011111011000011000
00000000000101101110101100100111
11111111110101010010100100010011
00000000000110001000100101001000
00000000000011001101111110010101
00000000000001000011100010011010
00000000000000111100100010001110
11111111111101100110110111000011
11111111111100100000011000000011
11111111111101100101111110001001
11111111111110100111110110110100
11111111111110100011011100111001
00000000000001011110010010100010
00000000000011100000111010110100
00000000000001001111101111111111
00000000000011110011001011010111
11111111111111100100111011000100
11111111111110101101001011001011
11111111111101110010010001001101
11111111111101100010001001101101
11111111111100001010000000000001
11111111111110001101010001001101
00000000000001001101110000001101
00000000000100000111100100011011
00000000000101100100000000100110
00000000000111000111010000001001
00000000000010100101001110110111
00000000000011001100000001110010
11111111111101111100111100101001
11111111111100111100110101100001
11111111111100010101100111111001
11111111111001011101010011100100
11111111111000100101101111110000
11111111110111100110111001011100
11111111111010111110111001011110
11111111111100010011110011100001
00000000000001100011101010011010
00000000000100010111111000110110
00000000001001000100101001001110
00000000001011001111111111010111
00000000001011100000010100000010
00000000001011110001010011101100
00000000000100011010000011000101
11111111111110111111000101000111
11111111111010110011011111101111
11111111110110010101001100101000
11111111101111100101101000111110
11111111110010000001011010010110
11111111110111101110111111000110
11111111111110010001011111010111
00000000000010111011110010100010
00000000000110111001011011000100
00000000001000111110101111001001
00000000001000110111000011010111
00000000001000000101001000101101
00000000000000101111110000110010
11111111111111010010111010111011
11111111111010101110110001101110
11111111111010010100010110011101
11111111111110010110110001100010
11111111111110001101000101101010
00000000000001001001000100111110
00000000000000010011010011010010
00000000000010001100101100011000
00000000000000101000010111101100
11111111111110010100101110111010
11111111111111001011111000010110
00000000000000000110101011010100
