ffdb4c71
00066c37
fff87ed5
fff58fa6
fffe7837
0014391c
0010e22d
ffefd36a
00032381
00040bc7
fff230b1
fff7ce58
ffe30212
00020ec4
ffdf5b68
000a3176
ffe1684f
0008514e
fff93259
ffeaf5c7
001edfd4
ffe6dd07
0000c7e0
ffd7f47e
fffdb850
ffdf9ab5
fffc4cef
ffe7cbd3
fff34ec1
ffd7a4ec
000559ab
ffedc65f
ffe78702
000d277f
ffeb64da
ffef6aaa
00013abd
ffeaa34f
fff622d2
ffd0313c
ffc40a72
ffd11913
ffe5af14
ffd2cea7
ffd7ed68
fff3c179
ffed2504
000ed93c
ffe019ab
ffe15eec
00066de9
ffe87004
ffe1da6e
fff8ad28
ffffb455
fffd1e7e
000329ae
fffa7790
0009cca0
fffd2daa
00008132
00133618
fffb5adb
fff5c63e
ffdb2b7a
0001e43d
0001285b
fffefde0
0012a3a5
ffe301a9
0001608f
000f9ff1
ffd8e0e3
000e661e
00037457
fff4b0cb
001155ab
ffe41bb7
fff9d04c
fffdc57a
0008029f
fffbbe8b
ffe5e428
ffe79ab4
fff95af0
000b261a
fffff6bb
ffeefbd0
fffd0eb0
fffe8315
fff228d8
0007dbe4
ffe569cf
0004f357
000dae86
ffecb826
ffea5b84
0000f442
ffefbfab
000eb3ec
ffd57248
001c7108
ffe52e04
fff42fc8
fff0c383
fff92e13
ffff7091
fff3dbe8
0010688c
ffe88e4a
000505db
ffd54b5a
00293321
ffe33c7f
0012caf4
ffde9c7d
001b4fc3
ffe4f395
ffebb00d
00131789
ffee60dc
fff4da47
fffdd24b
0006b63a
ffe80472
000204e3
001e77bc
ffcc579a
0005c38b
fff804f8
fff1bef5
ffdf9592
ffea8767
ffdedb6c
ffe2c010
ffef54a2
0000f5f8
fff6f5bf
fff65760
00037ea1
000c310b
000048d4
fffa0c55
fff06eab
ffed0656
ffe99caf
0004132b
fff9d2a2
000a0d9c
00253266
003b9fd8
00435248
004c9f46
002c7f6b
001601f4
00032ca5
0003c2da
000cc78c
fffa43fe
000cf0ae
fff516c6
fffa2b74
ffe3acd6
fff6ce19
fffaf6fb
fff36ca7
ffe795c6
000064e3
fff53330
fff2054d
fff7741d
fffe58b5
0001f5c8
ffe4b604
ffea68cd
ffc8be96
ffed9813
fffca82d
001191f3
fffe0bb1
00252b1f
003e23cb
001c3cdf
0007cfb8
000fcfcf
0009ed58
0001e567
fff9a47d
0004762c
fffc8fd0
fff7d0ee
fffa6df3
001083cd
fff2bd54
fff90488
fffafa80
ffe47c11
0000eaf8
fff957ab
fffd3fe2
001784b8
000a0367
000f0fa3
000c755f
fffc3a79
000f4c90
fffc9703
fffd0a1c
00013de2
fffab0ee
000d3e68
ffeb5160
0004fc76
ffed251a
fff491a6
ffeec5f7
fff0a6e0
ffef6370
fffc42fc
fffca8f1
0001599f
ffe2bf23
ffed8f1e
ffe5aea0
fff481d9
fff4956d
0000ff34
0012668d
fff5d204
000ae753
000916a0
00230e27
005faf64
004a2d44
00526d5d
002d940e
001a99c0
000be0dc
0007dd47
0012c028
0009e5d7
000183d8
000bca3a
fffa3a43
ffefa068
fff1507b
fffb37c1
0006a45f
fffe4ddf
0002d91a
fff3524e
0005efe2
000246d4
ffe568ac
ffe0fca5
ffd2792a
000d1c63
fff4c7f4
0016d3fd
fff55387
00032934
fff62f66
00012cb7
ffffb833
0001b147
fffae92b
ffe7ca82
fff5c070
ffe2adee
fff5286b
fff690f8
fff1fb77
fff8cf85
fffcdcaa
fffee932
ffdf9a2c
ffe9be12
fff4f09e
00032f2b
fff60de3
000626d3
ffff8338
0001f0bc
000cc8b4
001edbf2
002d4ccd
0053e901
007fe42c
00551f49
00519817
000e01e9
0014bdb8
fffdc486
fff1378e
fffdcb3c
0009bc67
ffe25965
ffec7526
fffa0d43
ffeef10c
ffefca3d
ffeec920
fff426e8
000ad726
00041034
ffe72fb8
fff95a8b
fff0ba74
fffd3a16
0018f867
0007c094
fff78be5
fff74b3c
fffe420e
0006162d
00149ca9
fffb0025
fff43b09
fff65eaa
00065ae5
002d2081
fff787c6
000ade89
001e7ccd
fffacc9a
fffed6f9
fff70c78
001d5626
000a5ff2
0000ceda
000fbd4c
000cb622
0008ca64
fff8f3b5
001638ce
000d5db6
001a2dd1
000809c6
0002ff60
000b7617
000a59bd
002d52be
fff72242
001b0dec
001315b1
000e0249
0010a098
000ec2ae
fff88201
001a11e5
00315c09
fffdbd92
0007c5ef
0013a392
0004cd0e
0021afe2
ffed70a3
00203b32
000b86c3
0013395b
000a3b4d
00168d98
000986b0
0016a1b0
000eb954
000b4be6
000f007d
fff6338e
001b874b
fff81681
001def1d
ffe7ef2e
002df2ea
fff925ce
00004d09
001dd001
0004fc7b
001bf225
ffe67b9a
0000497e
ffef1578
0010487c
ffe7e5ca
0041ca00
00048102
fffe6ebd
fff52b5f
0000ce75
00199aa3
ffdc52b6
000839a5
001446d3
0001f65c
ffd4e870
002a5cf6
000b9eb1
ffd7862b
fffd0bd7
001906cc
0000975b
0008d931
ffe42f81
00132e4a
0005a48b
ffe1da6a
0016e327
000d6702
ffe751db
fffd7407
000c4e8a
0006e9f7
fff574f0
0006545d
ffffe554
ffe994e5
0024c636
ffe939bc
0009e86e
fffae4b5
0002ead7
00085e19
ffeaa4ab
001e8c04
ffdcd132
002be212
ffd3156f
00102b06
fff9fcd7
001c3ffa
ffdc76ba
000db922
fff3d7cb
0018d02a
000344b5
ffe0665c
fffd69be
00216327
ffe5f77c
001352c1
ffe89946
0017db0c
ffef35b3
000b98ee
fff69a3b
000f77b2
ffd75010
00269b60
fff47d67
ffee9d08
fffc07ee
0008c4f3
000b4ec0
0002f9b7
0007f902
000d72b6
00134e29
fffba221
00143c8b
00173006
00032245
fffd87aa
fff0b50b
fff70f59
ffff0686
0003b74f
fffff14c
000285e8
000d49b5
0006bb26
000b4e3f
0003b7b1
00037358
fffedcae
fffefa70
000ceaac
fff9abea
00008d18
fffe6bd2
ffff5f76
00048020
000f61a8
0007199a
fff87e86
fffa3322
fffff852
fffa77a0
fff685bc
000175d5
ffe417cc
fff1b586
ffd3e325
ffb283ca
ffba91be
ffc66af1
ffd43359
ffdfea7c
00043479
ffefc961
fffca12b
0006f2c0
002e26fb
005b3cf1
002f4735
000fe9a8
ffeed9e6
fffa7e06
fffa3598
fff4344c
0006e4e2
fff8b286
fffe51d4
fffe7a72
fffcc18c
00069f10
000b9110
0013bca6
00076e9b
0002286e
fff51b7c
fff589da
ffed36a8
ffee4760
ffee99f4
ffee4b21
fff9fc35
fffaac25
00040a91
000bbfd1
000fd70c
00138ac7
002b58ed
00221a93
001ad708
000cb35c
fff4c0e9
ffe5e65f
ffe5c287
ffbef7a8
ffdc6629
ffe544ee
fffd6a10
00038e4b
001790fc
0026461e
0023cbc0
001a2214
fffda9a5
fff554bd
ffe20798
ffea6c34
fff10d8e
00061f8f
001e4a39
00210e4b
001e052d
000f8a54
fffccaa1
ffe5cf8b
ffddfb08
ffda465d
ffe3fca6
ffede378
fffcc3c7
001099af
00101ff8
001dd915
00120df9
0005bd79
000268ff
fff85a92
fffcfee5
00017e44
00036bf1
0003dbab
fff846c2
ffed3427
fff89279
0015493f
ffe75385
0006f411
fffd577e
000e13e5
fff03f87
000afe8a
fff071da
00112bc0
0009304e
ffe36b5a
001bd8c7
fff63ff9
fffc9418
fff36699
00162396
fffe0c2e
fff02256
00105a01
fff1ee00
000e4542
ffff4f7d
ffef4a7a
0021dd91
ffdb8562
00156aa4
fff2643e
000273db
000dbd42
ffeea2a8
00063dc7
001528dd
ffcee3cd
002a0047
fff404bc
0005c269
fff68fdc
00105013
ffd03a2e
002a2a3e
00141182
ffd2e26f
0014fa13
00021da0
00027d72
ffebbd07
001706f4
000222a1
ffe2c2ed
001b4db2
fffa2c02
ffe7015f
0017d009
00058cde
fff7639c
fff1d1e7
00183c5e
ffec7323
00180438
ffe514ee
00061480
00072523
fffd8109
ffd4bae3
ffd4a995
ffe1b868
ffec144a
ffee1856
fff8a3e1
fff941d1
fffcce0b
000b86b9
00109337
00182fbc
00136085
001f7be2
003e8ac9
002f4b07
004b2b30
003b76ad
001ea797
0014bbb6
0017583b
00127bd0
0007500c
fffce212
ffecaf06
fff225f3
ffead120
fff74aee
fff6107c
fff6cf0a
fff627e0
fff8a2b8
fff566b7
fffbc7ec
fff082cd
ffef5da2
000458dd
fffeee50
ffeef496
fff35393
fff0a972
fff63fb8
fffa6676
0004e566
fff49037
00067c42
0001d5bd
00050fbb
fff83717
0002ffaa
00062891
000c3197
0005bb71
000cbf0e
0000f2a8
fffa4b2a
ffebcaa4
fff8ca37
ffff138e
fff61401
000eb440
fff6deec
000736f2
0008aa68
fffceda9
00342064
000826a3
000b32a7
000991dd
0001cc04
fff0a464
0000930a
001e5282
0003ade7
00155edc
00003519
000b5da7
fff793d0
0026dd06
000e725d
fffffd31
000754c5
00015fe5
00163f52
00073147
fffe3cdb
00236be2
0019e651
fffa5dd8
ffda8062
001e1e38
00292c5a
002aa9f4
ffff9afe
000ded9a
0012d5b7
00002a27
000352c3
ffeec6b5
001e43af
0012711e
00019034
00245e90
00091b1c
000fdd90
0010805f
fffb72c4
000dc976
0013ac54
000178a2
000f54ae
0001c6cb
fffa6326
002411c6
0001ad4a
002f229b
0004547f
00070fe7
fff2de87
ffeca07a
00032624
000b7df2
00173e58
ffd337d6
0001130d
001b2c65
002751ff
001c5a63
0012753c
001fd297
ffeca112
fffd1574
0009b840
fff6dc87
0013fe23
ffe63fba
0000caf3
0002abe9
0004a138
0008a4fc
0017501f
ffeff34f
ffff943f
00049b09
00211d34
fffc7205
ffee71b2
0016e860
0002823a
0015724d
0003ffb3
fffec0bd
fff1ad78
fff8569a
00135268
fffb6043
ffec9097
001423b6
fff1cf42
0006abf6
000fe193
ffff2645
ffea7c7d
0004c23d
ffffd129
00125536
fffb46af
001c5802
002f8629
00309d8c
000ac62f
000e9679
fff3cd9c
ffea4c9a
ffed8874
ffc64824
ffddbd44
ffd0087c
fff20471
001d2feb
0035765e
001e8a26
00364c08
002df2d4
fff5ee49
00177f5a
00099bd7
fff6aeba
000b0c9c
fff7e86c
ffdef1e4
fff45e88
0007712b
0021987d
00105018
fffbaa29
00046775
fff3bb98
000164e5
ffff2d8f
00035a3b
00047630
fff03422
ffee3bc3
fff33c98
fffeb4c9
000a096b
0007dfdd
fffd9985
fff50e05
fff5db36
fffa51cf
ffe97b17
ffc076a6
ff6359f4
ffbd7ade
ffce3fea
0002df2c
fff539a7
00005c29
fff29305
ffff7cbb
fff72af2
fffd3a07
00040392
ffffa1ec
00246987
001f1413
0019b72a
00097046
00062869
fffb1a97
ffec58f7
00113d87
0002fb36
fffb9d3d
fff729be
000897c7
0002b056
fff48039
fffafae8
ffff1bd6
fffa03c4
0009a963
000e75e2
0001d1c6
0008468f
000ed0ad
0000023c
000784f3
fff93013
0000ece1
0016094a
0006f434
000ba9fd
0010de6b
fff90ae1
fff0c0c5
0006dbf3
fff8c1e3
0002da7b
fffe2070
fffd77dc
0000a8df
000dbb74
fff95f62
000a719e
0001a298
00113a28
00092f14
fffba265
0000a0de
000a78fc
0007213c
0002d3d8
0008515f
000d07d4
00074b84
fff704e3
fff77fac
ffff12cf
fff35c36
0003ac75
fffb2ba6
000e42ef
0003a912
001c1a16
000ca66c
fffe1306
00055107
fff91219
000cec5b
0011b1fe
fff72683
00186185
000037e4
000627ea
ffffe6fd
0007c57a
fffa4c51
0003bb16
000a2115
0002e136
000278a6
00024a18
0006d8fd
000acf36
000802de
ffec5590
0005fc7d
fff4db91
fff6de5f
00013355
000a20e4
fff0b636
fffc63b5
ffd6fae3
ff8fe156
ff84102e
ffa95305
ffad93d3
ffeaece0
fff9a862
fff916dd
0023a927
00305c80
003ecd01
00428560
003a4cf0
00238ae4
fffffaa8
fff97fc5
fff7f798
ffe02d2e
ffebcbdc
ffecd39f
fff1f336
fff60637
fff56798
fff93a0b
ffe307c2
00007605
fff68a73
ffe9b3b3
ffeea3ee
fff1961e
ffe1b721
ffdf8d9c
ffde99ae
ffdfe60a
ffcf403e
ffe6a9b7
ffeec92f
fff25a7a
fff88b71
0006f5f0
001c5dea
000048ed
001c5b7f
000e87e3
000a117e
001faf85
00182905
0009275a
00091407
000b5036
000f2b82
fff469c1
ffff2f07
ffef53ca
fff03e06
ffe4b662
0002619f
0010986b
fffbecf9
001308d4
0004540a
000b8f50
fff69348
00048414
00094c06
0015b95b
000abf80
000e56d6
00090abd
001e932c
0007ec35
00073d4e
fff6e434
ffe7197c
ffd9cfa6
fff1e050
ffe2db5f
fff800ca
ffed063e
000eb9df
0019a1a4
003c6a8b
0024b7c0
002a46f3
001de848
0006a94c
fff0a38d
ffe1566e
ffc11b66
ffd2a307
ffdd3e98
ffebe2ca
fff9abc6
0006e2ab
0019c55f
000cd2e3
00095c4d
00086e8c
000e4db3
0016e51b
0004a567
0011a664
000d77eb
0016dde7
000390c6
fff936fd
ffeeeaa0
ffe42b49
ffcb439d
ffd17e4d
fff41566
00084557
001475eb
0022cbc8
0008b8e4
00197bcd
000ca9b4
0001dab4
fff8c858
fff349b3
ffecec4f
0002213d
00060a05
fffd9b51
000ff480
000a963e
fffd0982
fffd4ac4
ffeef47e
fff2ec64
fff76207
ffff2e8c
00106d0c
ffda78b3
ffe9098d
000d6de1
000428ca
fffb9c81
ffe99a95
0011227c
ffe204f0
001b7d78
fffe9047
fffa1b68
ffebd453
fff7c4fc
0000b475
0010ceac
ffdd66c3
fff524ba
ffe99c2a
000d5fae
0005793a
fff5f944
ffdccc86
fff36d23
0005e917
ffd87c65
fff8fe13
000882e3
0009bdf4
fffada29
ffee1ac4
000fb75a
0008b932
fffc2390
ffe6113a
000221a4
ffe831a4
00114dd1
fff0d0ae
00155ed4
0029d7b6
ffeae3ac
fff69d8e
fff612d9
0003c84e
fff068b7
0002dedf
ffebeb42
00014313
ffec2185
00012716
ffec9261
fff94ed0
ffe2eddd
fff958ba
001e32f7
ffdf11ce
fff7d590
fffc7b30
ffedc1df
000f8a60
ffe83804
ffd55e48
ffee34ce
ff9ad0d7
0007f375
ffef86bf
001784fa
ffeb7fc0
fff88726
000feb44
00129178
ffdc933f
000a4117
000bf8ea
fffc4e07
0008cf02
ffe14bca
0022809a
fff7d4bb
00021b46
fff2cbe4
0009df51
000be9cd
ffe28862
00083c72
000b2df5
000e930f
ffe061a9
0003dfa3
000812e3
0015bd38
ffda528d
0012dd42
fff2f8cf
00035dc5
00148646
ffeda157
0016b03c
ffc91950
00312718
fff7a52a
0003bc63
ffe266e2
002c0fda
ffda5ca1
0011c7d5
0001a3c5
000df0bd
ffe10fd2
00043f72
000fa913
ffe634e6
001d9787
fff5a732
000bbf85
fff9d404
ffedab0f
fffc11b8
001847a4
0009ca61
ffd2c966
00398e03
ffcd37c0
0009f67b
0009180a
0004a2b2
fffb9331
fffed3f7
000873ee
fff85552
00041a5e
ffff4775
000b61c8
fff2c6e4
0004fd28
fffac3d2
0008f3bd
fffbe8ae
000ab028
fffb219f
fff9b9b1
0002277c
fffdfe80
fffbdc98
fffe51fc
ffff7612
0006b2f5
0003a52f
fffd9ff1
00087086
fff603b7
00003b28
00093e35
0001850f
0007fec8
fff634b7
000462ba
0005a35a
00006b4e
00051b27
fffc6e74
fff7e2cf
fff8bc1e
fffae9b4
000057df
fffdb943
0005e3fc
0002dda9
0009ccac
00096018
00001204
fff55284
fff64323
fff739c1
000e5156
fff9f18b
000036d9
0009e898
00002c46
fff5f326
ffc955b7
ff9939cf
ffd0f1da
ffe5467d
ffeb38ab
fff1594c
000915f4
001c8b40
001f051e
003239aa
0054a1da
00403421
00033e55
000a632b
0001873b
fff3e2d2
fff0f5a0
fff45f39
ffef73ef
fffa7788
000839eb
00158bae
001afee0
000954c7
ffffc741
000bdf06
0006f5d4
ffeb329a
fffb98e5
fff6a2c1
fff995ab
00150f0f
ffec47c9
ffd635d1
ffe16af8
fff53ef2
fff763b2
000b0127
0018a84c
003b313b
00315474
0025b1ef
000fc300
fffd870e
ffe10fe7
ffc7bd78
ffbeef7f
ffc1acd6
ffea2f9b
001a5224
00229ce0
00378b76
00257023
000e9cb2
0004c496
fffa030b
ffde2b40
ffef5e40
ffea3076
fff0abd3
fffcb2e2
001486db
000ef2b7
00138fc4
0006cbc8
00047cb9
00028c98
ffefb043
ffef107f
ffefc683
00044f40
00036b97
0006c003
0003362e
fffc354b
0002358a
00019600
0007c762
00020383
000b7712
0004386e
fff7536f
ffff8aa4
fff99c3a
00205aaa
fffc8db3
000fa11d
000759f0
000b365b
fff58f13
00080530
fffa8ad6
fffaab0b
fffa991b
00036850
ffff2577
000f4e63
000b4685
0006d49e
ffde43ca
000384f0
00000d8c
fff910ad
0001b457
00074f00
fffc86e0
000e7bcf
fff62c94
ffb49b46
ff8066ab
ff62589b
ffceb674
ffe13dec
fffb7ba9
ffee003b
fffeeec8
00230929
0008d115
00056f92
000788c8
00171a4e
ffff45a5
00034198
fff664aa
000b62b7
fffc59f7
000b8b23
000ac89c
000b0a0b
0010c3e6
fffd768f
00080082
ffeedddc
00027bc3
00050b77
00138fb0
00048200
0012ec76
0007df98
fffeed36
000c80fd
fffa73a4
ffff9ff9
00092c70
fff4d4a7
fffc6eee
000433f3
0001cdf3
00039369
0009a48b
fffcef38
0007fd17
fffa6196
fffb8f00
0009ecbb
ffffe0c8
fffb0b5d
ffffc2bb
0005925d
0004eb61
fffdd644
fffb380c
0001eb7e
ffeb0446
000166d3
00030937
00044a3a
00027870
fffeb522
00010265
fff3d347
0004bb19
0000083a
fff6ccb7
fffe7a7a
0012466d
fffed739
00071d2c
ffe7d240
ffc0ef87
ffb1efd0
ffd29239
ffee74c6
fffe4726
0006ce71
0013e45a
0036a17e
0055d7cf
002dccab
fffda6bb
0005d80d
00131be0
00172d09
000a9e61
00046a2b
fffed14a
0012a4e2
fffff722
fffb3f62
fff5e1d2
00095e86
fff5497c
000151b2
ffe2329c
fff35732
0009e342
fff87d15
0009dfee
fff42d89
000bf935
00056ba1
000e0b55
fff591ba
00027968
00043d4a
00021e67
000ee425
0000a80d
fff8fc51
0004a0d9
000e8543
fffed211
0008aa6e
fff95d3a
0007e7a2
fffcb61e
0001904d
0004c84a
000a5dba
fffdc34a
0004317d
000d6c97
000ee008
0004f1f2
ffff922e
00030314
000140c3
000ae1f5
fffcafdb
fffad0c4
fffa8f18
fffc2641
000b2a99
0007d926
fffa8dc9
00060dd6
0006200c
fff903f4
fff5e4b0
fff4ba0e
fff37a78
0001c6af
000033a6
fff11f95
fff241df
ff9f18a0
ff8167c4
ffb68e32
fff3a3e3
fff43396
0004804c
fff7f52f
fffeebe0
fff0b03b
ffefa311
fff676c9
0021ef47
004aeda8
00035aed
fff183b7
0012b60e
fffc7ca9
0000a4cf
fffb56bd
fffa5707
00159c3f
fff1feaa
001101ae
ffc9835b
002b701c
00031604
fffd9233
ffe60518
00275220
ffe67828
000708b3
0014e250
ffd7ce13
001c3900
0009c645
ffd5c2bf
00256b9c
ffea6338
0009c536
0001fe05
fffe96dd
0012d4de
ffd7a885
00153d43
00014663
fffeb90d
fff42125
0015a724
ffe87c42
0009c8da
00043f53
fff87aeb
0007d1c4
fff92a0c
000da675
ffee2e38
0004c568
fffa7673
00253bb4
ffc4fe6e
002e3bcc
ffe81ac6
0006eecd
fff95713
000becb5
00010cdd
ffec0246
0002d26a
000f8d13
00057ea6
ffe07a88
001eac55
fff55a4e
fffb7582
000465a8
fffe772d
fffef10d
fffea052
fffc540b
000663b6
000e3cb1
ffe612d8
0010ec56
fff82fdb
fffde828
fff9d3dd
001aed50
fff3d06c
ffdd7e90
002147b6
00040dc6
ffff5c52
fff26789
fff40b91
0022bd1f
ffdd3d7f
0019491c
0004303d
fff75e4b
ffe3db1a
00250084
fff49ad4
000b7ffb
ffe111be
0023c0e4
ffdcfc0e
0020cca6
00090a70
ffca87d6
000d1094
0011bb7c
000cb711
ffe4ca83
001ba512
ffe1766c
0014187e
00054210
ffe0817b
0003b79d
00319f78
ffcd8eb4
001b1de7
ffe0ef78
00365593
ffd98f19
0001e5ad
0011a59c
fff3557e
fffa2236
00102a35
ffefd422
0004f216
000a0070
fff5f82c
0009c18e
fff330ec
0004bdb4
0007faaf
fff05bbf
0003c6bf
00053e80
fffd951f
00083704
fff9e40d
fffb85bc
fffc1a77
ffe41624
ffdfd5f7
ff90abed
ff5f804b
ffb461c8
ffbd94b0
fffb0a2e
fff97108
0000e7f8
fff9d717
000a5461
fff5b434
fffe07c4
fffadad0
fff66748
00007652
0016d146
001b1065
0009a6d8
00194097
0003eb39
fff1ffc6
fffeda63
0005bc0b
000d43cb
00079ddd
0000c97a
fffc5865
0010fadf
fff55485
000991c7
fff9c90a
0009c424
000944c1
000befe1
000b6a22
fff13708
fffb596c
0004c3e2
00048ddf
000fb7b7
00071742
fff524c9
0007dea7
00057659
00126db4
fff3cd2a
000d100f
000c6230
000f8208
00093951
fffe3a10
fff813c6
fff3e102
0008d3a8
00007351
fffca1a0
0019b099
0000ace8
ffea6664
fff87132
00017e6c
00134ef3
00157944
0010785e
00020e9b
000619b6
fff24f9a
fff53fe4
ffe5b715
ffe89408
0002316f
00030e75
000514b5
001fed2c
000bb580
0005a86e
ffe85c36
ffcedf3d
ffea3e88
fff8364c
00084940
001d82f2
002cb280
0035ee62
00227c38
000e93d2
fffc9abf
ffd8fff9
ffc8fd06
ffcbe303
ffcd88b0
ffe1bc0a
fffdf94e
001d4478
001a0d8b
001e429a
001fba3e
00155f82
0006e22a
000e4c9c
00019df1
fffbf7ba
fffc83ba
fff391c2
fff3c51c
fffb0952
ffee7e8b
fff1a14e
ffedaab1
fff20a52
fffd0022
00049865
0005e921
00112850
00182332
0010816b
0005b7a0
fffdc49c
fff6ae72
fffc95b6
fff52e69
fff9879e
ffea2c04
ffec2587
fff1ab37
000418d7
001cc5aa
0015758a
00201e61
0018dceb
0004c0bc
000371e2
ffe9e6cc
ffe1ed00
ffd2bf22
ffdc0d33
fff60ffe
000408b7
001a3a51
0027ea87
001cb930
0017850e
000c7c1c
ffec3666
ffe63be0
ffdbdaba
ffe5c130
fff3353d
fffff667
000a9649
001d5200
00253abc
001283ff
000b1811
0001e8c5
fff8a8ff
fff60eed
ffff1dcb
fff4a734
ffe925ea
ffeab3f7
fff9284c
ffed1090
ffed3414
ffffabdf
00035c95
000e0efa
0018af69
0023d302
00216cb4
0012ebef
000c3c6a
fff4f0e0
ffef2481
ffe8320e
ffdf420f
ffe59c61
fffbad37
0001d589
000a1c08
0007a0cf
000cfc73
0007cb10
0001f664
0000ec01
ffff0104
fff5da7c
fffd555d
fff4b222
ffedb46a
000080c7
000a72fb
0008e990
000f3895
0018b1fe
0010a2c0
0017edaa
0014e871
0005a19c
ffec520e
ffe348b3
ffd2f5da
ffca0e90
ffdb265a
ffe20f14
000e3a63
0014f417
0033e7ff
0041d589
0026b479
001172aa
fffd48bf
ffe9069d
ffe50ce0
ffce7852
fff5c59b
00038a24
0000c8b7
0015ff66
001ccd31
0008b8a8
fff9eead
ffed7b1a
ffdfa2c9
ffea8458
ffefea7f
fffd3f50
0001d654
001aba30
001f1a69
0012ab82
0011ecdf
0005cefd
fff88c03
ffef6690
ffea781b
fff41dc4
000bcfe4
fffafd27
000e70ef
0010cddb
fffa6520
fff5def0
ffe9d472
fff7ff91
fffb2654
0004e174
0010f1e6
000d6bbf
fffbe637
fffa82e6
00045cd2
fffb1b0c
fffbe3e0
000abbfa
ffff91d2
0000f3c7
ffedee6e
002521d7
ffd9fa1e
00120feb
fffca662
0001f1d7
fff57efd
0010c6bf
fff0e95d
001a23e2
ffdab8ee
000db2f8
0011280c
0005861b
ffcbf6d6
002a4bb1
ffff4ff2
fff9b5b5
00047185
fff01725
000e570a
fffa112f
0000af11
000372f1
fffa99a2
00050965
000d2f84
ffeddad3
0015bf0c
ffd839f8
00284ae0
ffdf4d1e
001b7f8d
fff20842
fffdf040
0009675f
00035776
fff08834
00072829
fffcf247
00154f22
ffe27b45
0005321f
001372ca
fffd66be
ffe41f59
002db1cc
ffd7c61e
fffa25e0
00274120
ffdf2b05
001ba829
fff0302d
0001f618
0016eb27
ffd52913
00188948
000cdf95
0004389a
0003c88e
fff66dc3
fff20603
fff65f89
fffa7db4
fffa3739
0005e4a2
000e0eb4
0004fbff
000f32d7
fffe4ec4
fffad2cb
fff7244d
fff6226d
fff0a001
fff8d44d
0004dc0d
0010791b
00164026
001c7409
000a53b7
000cc072
fff7cf29
fff3cd61
fff159f9
ffe5d4e4
ffe25bf0
ffde6e5c
ffebee5e
fff13ce1
00063a9a
00117e36
00244a4e
002cffd7
002e0502
002f14ec
0011a0c5
fffbf147
ffeb37ef
ffd95328
ffbe5a3e
ffc81696
ffdeefc6
fff917d7
000bbca2
001b96c4
0023ebc9
002370d7
0020522d
0002fc32
fffd2ebb
ffeaec6e
ffe9459d
fff96c62
fff8d16a
0004913e
000134d2
0008cb18
000285ec
fff94bba
fffcbe16
00006ad4
